/**
  ******************************************************************************
  * @file    network_data_params.c
  * @author  AST Embedded Analytics Research Platform
  * @date    2025-10-08T16:56:05+0800
  * @brief   AI Tool Automatic Code Generator for Embedded NN computing
  ******************************************************************************
  * Copyright (c) 2025 STMicroelectronics.
  * All rights reserved.
  *
  * This software is licensed under terms that can be found in the LICENSE file
  * in the root directory of this software component.
  * If no LICENSE file comes with this software, it is provided AS-IS.
  ******************************************************************************
  */

#include "network_data_params.h"


/**  Activations Section  ****************************************************/
ai_handle g_network_activations_table[1 + 2] = {
  AI_HANDLE_PTR(AI_MAGIC_MARKER),
  AI_HANDLE_PTR(NULL),
  AI_HANDLE_PTR(AI_MAGIC_MARKER),
};




/**  Weights Section  ********************************************************/
AI_ALIGNED(32)
const ai_u64 s_network_weights_array_u64[1931] = {
  0xbe4beed8bdfbba86U, 0x3e88f48cbe68b0a0U, 0xbe69c7b4be6d3fa8U, 0x3d42a171be97d5a9U,
  0x3e1ff326be3dcf6bU, 0xbe3eecdc3ea4af7aU, 0xbea4a4fabd54282cU, 0xbe6d79803eb01962U,
  0x3ca16e81be8dd9bdU, 0x3d9c960abd4db255U, 0xbd0bb8793d99fd55U, 0xbe966fdd3e648956U,
  0xbe52e38abd689a74U, 0x3d85e596bd41f9b7U, 0xbe367bad3e9e8c42U, 0x3d97588a3e3e3353U,
  0xbe50d6bd3e53876bU, 0x3d860fa53d635d5fU, 0x3c5edfc7bd4e8f20U, 0xbe6526a73db09261U,
  0x3c82a5d23df99897U, 0x3d9fec2f3e22ed15U, 0xbdd644db3e09c606U, 0x3de911f23e015ae2U,
  0xbe1b250d3dc09989U, 0x3dd4f4b53d825c0dU, 0xbd19dc1e384f666aU, 0x3da3080fbe08c6c1U,
  0x3ba6514bbd067c17U, 0x3d722c94be2c9b91U, 0x3d0be2a73db712fbU, 0x3e223159be07e725U,
  0x3b98f2003d390449U, 0xbd9344273cb232ccU, 0xbd04538bbd8e04b3U, 0xbe0b23d0bd8db38fU,
  0x3e1fbaddbdff390fU, 0xbda18215bd1850eeU, 0xbe003101bd86eeffU, 0x3ad96a673e079230U,
  0x3d5c18a53d49d1c4U, 0x3def8e123c1df03bU, 0xbe1d5063bcc25978U, 0x3d510b7ebdad8c97U,
  0x3e0807ed3dbdfef2U, 0xbdf78eb93d88c9f0U, 0xbdab9894bd35d6c0U, 0xbdee82173d10bc09U,
  0xbe5a4bb9bd0b8c00U, 0x3e13a5873c31b0faU, 0xbd9afc183ddd343aU, 0x3d9e3d463c4e9e65U,
  0xbdc66478bdee4f8cU, 0xbe16e34c3e1ff856U, 0x3e1550cd3e3ea9c1U, 0xbdcb39adbe27ed30U,
  0xbb5303593e383e2dU, 0xbe147b303e20a899U, 0xbe2124d13da7d8a4U, 0xbcf50dd43e195903U,
  0x3d4e2ba1bdcc99d6U, 0x3de032ddbd07e250U, 0xbd3262773dff9b87U, 0x3d1652283c341061U,
  0xbcc5f7643df32016U, 0x3d987482bd84acd2U, 0xbdeb5a483e09b42fU, 0x3dfa6c7e3d6c3908U,
  0x3dfe2a9abdaa851aU, 0x3c2fddc1be2c2f30U, 0x3dae4dc13d08a5f1U, 0xbe2e871bbdc31c56U,
  0xbd8d46d0bdc39709U, 0x3d38458a3e2817a1U, 0xbdfa7d933e03930bU, 0xbe0ac71abbdcf77fU,
  0x3e0aebfabe1736e0U, 0xbd4b65adbdebeb0eU, 0x3df6f5a0bd90b2d8U, 0x3d36fd2fbe1513dbU,
  0xbda34920be54b778U, 0xbd99a2a83e149839U, 0xbcedceb83e07899dU, 0x3bf69a2a3d1dbd64U,
  0xbc5cba87bdfad153U, 0x3df070f3be1966f7U, 0x3d85ac7d3e186cb4U, 0xbd8c6e753e01e50aU,
  0x3e3bd7f5bd8867d9U, 0xbd09ccfabdd73c1fU, 0xbd2fe4243d0679bbU, 0xbe0ce2f9bcb7b8dcU,
  0xbe224d6a3e2e7b75U, 0x3dbf14593e073025U, 0xbd659546be5aa5d7U, 0xbdd7367dbe2a16aeU,
  0x3ddca53abd5c5121U, 0xbdf539973e1ce01eU, 0x3deb2cc9bc0d5f15U, 0x3d5b1eb23dfc6861U,
  0xbdc9f49cbe33ec65U, 0x3dd8f1eb3decd048U, 0xbe203381bb72f232U, 0x3e1c1f693d590ed8U,
  0x3ccb24c0bcee4930U, 0xbc21872d3ce8a482U, 0xbd17eddfbdc54fdeU, 0xbdcf9d7d3e0b72d0U,
  0xbdb88c8d3e2d39c2U, 0xbe07fbfe3e0ecebaU, 0x3d57e9d8be1896d9U, 0xbd82d1713d63889fU,
  0xbdf803d8be0dd3daU, 0xbe1f61603df9d34cU, 0x3c8f835cbc2ba880U, 0x3d90e4e73e000070U,
  0x3d38b2bb3d8a787cU, 0xbd8fda5d3e20567bU, 0x3e2bbc903df81b21U, 0xbc9d8393be2b2b15U,
  0xbd875c393deb582cU, 0x3df9f7d03e0702edU, 0x3dd58bb0bd2a6af6U, 0xbc438534be193951U,
  0xbd90a7f6be19a0afU, 0x3e00384cbe27da14U, 0xbd1f5138be0311ccU, 0x3e237135bd13f9eaU,
  0xbe3f7a7dbdec3f29U, 0x3da09f813d90446bU, 0xbe2657843b195240U, 0x3e02ca343d8f6d8bU,
  0x3d1bc83fbdf45c5fU, 0x3ddeb7adbd8cbf95U, 0x3bb674e2bdc00185U, 0x3dfc95fa3e1eaaddU,
  0xbd8180063d82b1a3U, 0xbdaba325bdb42f18U, 0xbdc30f5a3d99f394U, 0x3dff937a3dba2e8fU,
  0x3d15107c3e2ce8a1U, 0xbe2d25a13d8a185aU, 0xbe068750be0e51d6U, 0xbe0b7eebbd0c7266U,
  0x3c9352ba3e115548U, 0xba29ceb0bd3d9ac8U, 0xbd899a2cbd61d0f9U, 0x3e0c32eabdab18b1U,
  0x3d7c2218bd86a18cU, 0x3de22861bc53bec4U, 0x3d1222cabd714db6U, 0xbddb7d613d0ee138U,
  0xbe3281873d0fa83cU, 0x3d8e2af1bdd20999U, 0xbdf8256abcf61911U, 0xbdecbea2bdd55ebdU,
  0xbdd2f75bbba1efcfU, 0x3d18eb083d975cdaU, 0x3de3483f3d1766ddU, 0x3d62a0b6be0c3ee0U,
  0xbd5d29603c105683U, 0x3cb99e843dbe00b6U, 0x3cdb06893d9db702U, 0x3d26394cbddf8298U,
  0xbce7c801bd94f919U, 0xbd6ba3f2bda4d1e1U, 0xbdc02a5c3d618fb3U, 0xbdf9fa073e09d389U,
  0x3d0748a8be05e892U, 0x3cf3bbf0bc9cbfc0U, 0xbd9859f3bd410ad2U, 0xbe13bf0dbd21ccceU,
  0x3dff59903dde1fb4U, 0x3ce84770be000bf5U, 0xbcb7679cbddfd92eU, 0xbde79868be1269ddU,
  0xbe0b50033dc12ab0U, 0xbd0e4928bd6c7d42U, 0xbd961b733cf81cf0U, 0xbdc1e6b83dba1fb0U,
  0x3e0bd19cbdca7024U, 0xbc410410bd1d41ceU, 0xbdbac6c03d1ccc78U, 0xbd2e90443ca7da78U,
  0xbdf4e89fbd3bced4U, 0xbbb58aa0bbf9a580U, 0x3bdb12403d453f40U, 0x3d6c8130bde72a90U,
  0x3e138490bdd8ece2U, 0x3da686663bdb3460U, 0xbb3126803cf917e8U, 0xbcebd998bdfa0cefU,
  0x3dcf9088bcf545f5U, 0xbdc45f7bbd92d14fU, 0xbc98d3bb3d64b316U, 0x3ce9da883e02630bU,
  0x3dcfd3ae3b6c8618U, 0x3d8850063d53ed30U, 0x3defb8903cf756a1U, 0x3d9d4122bd204713U,
  0xbd086ec5be072413U, 0x3de638b03b985aafU, 0x3da510923d25934cU, 0xbdc7af963d82545cU,
  0xbd28d888bd7dda0bU, 0xbd8f1e73bc414507U, 0xbda75ce63bd81fceU, 0x3ce7eadb3d280b59U,
  0xbe07cd8f3ddd503cU, 0x3e08e216bced2d70U, 0xbdd630d1bd2eb2abU, 0xba9fc3cabc31f213U,
  0x39a03e54bd54ca97U, 0xbe0a87c83e1262c9U, 0xbdb171c2b9de5532U, 0x3e02f9f63deb2389U,
  0x3cea87243cb7d3d3U, 0x3dbe54eebe083306U, 0x3e0bb3063e0e5298U, 0xbd27eba0bd8ecdcdU,
  0xbdc5d4e13bc419e0U, 0xbe0709a4bdc5e2feU, 0xbd58ae243d2ad97fU, 0xbd0b014b3de1bdc7U,
  0xbd0be99bbdaf69a9U, 0x3de18ecc3dab0718U, 0xbba278203c9267e8U, 0x3d377d9cbdcfd85bU,
  0xbdcf5ef73d37281dU, 0xbbd139a93e12a051U, 0xbe068a2abdaee856U, 0xbd7bc3473bbf4047U,
  0x3c97bb08be0be299U, 0xbe0b7f6a3acb2dfdU, 0xbbee962b3dabbc6bU, 0x3db92ff13dfad97aU,
  0x3d7ba7243bd62320U, 0xbcd713a6be08edabU, 0xbdc3d5e0be0ba0f4U, 0xbdf26a6d3e0807fdU,
  0xbdd4c4093d2e8eb0U, 0x3de94dbc3d1c8784U, 0xbd0cdcc2ba5a0400U, 0x3c4fd0b0bda86d56U,
  0xbde218f63d47e8ecU, 0xbe10fb0dbdde9f62U, 0xbdccd3a03d547940U, 0x3d4adfccbd70b904U,
  0x3d3a520cbccce354U, 0xbd055deebb373380U, 0x3ddfaf50bd07e136U, 0x3d997e10bde2ee2fU,
  0x3e0ec596bdee3678U, 0xbdf26c5fbddb95beU, 0x3d50f4fcbddbefbaU, 0xbe0e035cbe022234U,
  0xbd7f5a8abe0861c9U, 0x3dc2b3223d5af6ecU, 0x3d980ccebd33d46eU, 0xbc0a3280bd4a3342U,
  0xbe0f48f03dd2f3ccU, 0x3e072bb8bdd84cdeU, 0x3d9023143dbcb38eU, 0x3e0177263a12aa00U,
  0xbd873c2d3b76fe68U, 0x3d5c1160bd3c0effU, 0x3d8d0ad63d4f6ddcU, 0x3d46d99c3da96f6eU,
  0x3c3cdf5e3bfd14bdU, 0x3d551ca9bc9b8c60U, 0xbdacaf04be005fbeU, 0x3db8d9b53db49096U,
  0xbdc15d3bbc2d99ecU, 0x3dcd2388be135b6bU, 0xbdebee823b8144a4U, 0xbd0f7e72bd8e424cU,
  0x3d355d763db5807dU, 0xbdae7c133e096cc6U, 0x3d8c17323dd3b88aU, 0xbddf1c0fbdd0a985U,
  0x3c61e1f5bd8f6e95U, 0x3dd43249bd906dbbU, 0xbd92b8713dfdfc7aU, 0x3dda3ada3dd7beefU,
  0xbd1fc3be3cc53930U, 0x3dcf57c1bdc51ee9U, 0xbda39f453e06ae94U, 0xbd2a083dbc875c7eU,
  0xbde4df073def9afaU, 0x3bfde410bdfc78b4U, 0xbdda4826bdfa1ceeU, 0xbdd58bc93d1cba93U,
  0x3c82fe40bc912746U, 0xbd66354f3d089ab8U, 0x3d95d1be3d95b638U, 0x3deee3593d9005bbU,
  0x3bde1e383d27285aU, 0x3dd60a3c3e228b52U, 0x3d9ef81c3ce2857dU, 0xbd50f80b3c14f3f0U,
  0xbdd3ae3b3d1c1442U, 0xbd47ce93bc1c8589U, 0xbc7f39aabdaecec1U, 0xbdaff3fdbd538325U,
  0x3e0aa766bd56c422U, 0x3d84ea26bd060112U, 0x3e120348bd2c58b0U, 0xbd5cf6d0bcb6a3b6U,
  0x3cdf1c4e3e142a67U, 0xbcdfaf32bdd0cfd1U, 0xbd04b3ebbd0554c2U, 0x3e0c48643d212c00U,
  0x3dc0bee2bc4ad733U, 0x3da388bcbcc65838U, 0xbb9bcd2a3e13917fU, 0xbe0ce1bb3bec4cd6U,
  0x3c9b0d623d7bc8d4U, 0x3d4bf6ebbc881680U, 0xbdd03e123e1320ceU, 0xbd2fb945bd13748aU,
  0xbb086db9bddb12cbU, 0x3dccc5ca3d18d0d4U, 0xbd19f89abdf7814fU, 0x3df57f883d0c34a8U,
  0xbd5172edbd7a7837U, 0xbd8b77633c501606U, 0x3d39351cbdecef2aU, 0x3dd07c16bcdc580fU,
  0xbc0bd1253ce2fe8aU, 0xbc6f6610bda300c2U, 0x3d428713bd9870f1U, 0x3dcb3a8ebdb828bdU,
  0x3bd0cb4f3d745fb7U, 0x3b46d6603d2993abU, 0x3d926afebdd50dbfU, 0x3d474c13bd8477d8U,
  0x3d97a3653cac3011U, 0xbe08e8d2bda95c74U, 0x3d62e31c3e1f1990U, 0xbccfa1d7bd3dc60fU,
  0x3ded467f3b823e42U, 0x3da783e73dab058cU, 0x3e111ec33dd7355cU, 0xbdf3b0c03ddaf1f7U,
  0xbd82ca1bbda41f61U, 0x3de05e383df9e982U, 0x3a2021543debc01cU, 0xbe0fb5edbcfe6b64U,
  0xbdd19b4e3d9d0e3eU, 0x3b99f9283d0d5090U, 0xbc239addbd066751U, 0xbcfe24843dd14414U,
  0x3dfbcad83d201f2cU, 0x3dc17098be0abca4U, 0x3d5f2593bc4fdfdbU, 0xbdbfa54bbe046ac6U,
  0x3d8a460fbd1c170aU, 0xbdae130c3dd287bfU, 0x3de45e553e005039U, 0xbe0010d43db5ce87U,
  0x3e11f4283d75f992U, 0x3be9e1043b585f07U, 0x3e099fa03de44feaU, 0xbd95c5e8bd53c5b8U,
  0x3e410f7a3db58979U, 0x3d9fc810be0a589cU, 0x3c9bb5b33c5ea3a2U, 0xbd0e80873bc8636aU,
  0x3d911a403df017e4U, 0x3bad5161bbdd8c12U, 0x3bcb23173dc94ed1U, 0x3da34c2c3d2d1920U,
  0x3d8866b9bd423498U, 0x3d25cd623d51b689U, 0x3d1e7ab4bd52f8c7U, 0xbdb1cf1c3e1aacc5U,
  0x3de687f03dd30daeU, 0xbcbb77403d2065eaU, 0xbdd4ef22bdf1a594U, 0xbe0d3484bd9e059cU,
  0xbd52591bbe1932bbU, 0x3d7a710a3e1ff988U, 0xbd74d061bda84af0U, 0x3e14d908bdbe36a9U,
  0xbc73bdc1bc590765U, 0xbb91053b3dfb2919U, 0xbda77101bd5832b7U, 0xbd12cfd53d70b08eU,
  0xbe315a0b3db493e1U, 0xbe09241cbe11a0daU, 0x3dfbd8a83ddc21d3U, 0xbdfb4f98bd1d1416U,
  0xbd2eeb9f3d0a196dU, 0xbcdbd134bde0d927U, 0xbde329f5bdbe5eb7U, 0xbdafeb4cbd23423aU,
  0xbd979b033cf11da3U, 0xbd1606ca3ca5727fU, 0x3d1dd460bd17d5b5U, 0xbcc387e43d874fa8U,
  0x3d9a3bc83d9cea83U, 0xbcb381bdbe0fcfb4U, 0xbdfb7a6d3d97a562U, 0x3dc995003d513452U,
  0xbda580633d8b9659U, 0x3df4ff25be07d92aU, 0xbde7cf1cbdd487c9U, 0x3db032a63cfd56a8U,
  0xbb83df7a3c380a14U, 0x3dfa01313d39854eU, 0xbdd28d3ebe0376c2U, 0xba1883453def7ac4U,
  0x3dbc51debd92e8a7U, 0xbdc6db673db3ed8cU, 0x3db04ce6bcf68bcdU, 0x3daccca53ddae252U,
  0x3db2957e3bf9d32fU, 0xbdf4a01bbd5a68f4U, 0x3dc57366bdcc890aU, 0x3d40c5af3d309e94U,
  0xbdda2a3ebdce20f1U, 0x3da5ec62bdab690cU, 0x3def98f03d6d495fU, 0x3cce3899be127433U,
  0xbd04ce123e019c9dU, 0xbcc8c7553ce7ea88U, 0x3bf0d6693c83327bU, 0x3d0481673dea8aedU,
  0x3daf2a4dbda63a5fU, 0x3e0525163dfee94fU, 0x3cdddb94bd84639aU, 0xbd1bcd76be0365a8U,
  0xbc002c26bdff2de1U, 0x3d6267e2bd8c31b0U, 0x3e074c4a3d7ebce9U, 0x3d0f8abcbdfd8f73U,
  0x3e2a70d73db0e13bU, 0x3defa74e3d7535ecU, 0xbc9c6d913df1a18fU, 0x3cab17b83d4f161dU,
  0x3dab0e313d8fbc61U, 0xbd87c2533e1e6c06U, 0x3e136fadbdd0cc28U, 0x3d8efd5fbd022620U,
  0x3e0d24013c9d4b79U, 0xbdbd9fe3bdeb2575U, 0x3c24c25dbdddd0fbU, 0x3dc1d5a53d087d84U,
  0x3ca8c351bc82ae2cU, 0xbdb1e30fbd2dfe38U, 0xbcb966c4bcb686bdU, 0x3e005cb23d990895U,
  0x3e00bfc8bde1c09cU, 0xbdf95968bc0a15ecU, 0xbdbf30203e0ff72dU, 0xbdae4557bd45590cU,
  0x3d3ea4583ceca22aU, 0xbd1e9e1e3c87eafeU, 0xbdf390643928e631U, 0x3de3e89f3d47a5a8U,
  0xbc4341373c170255U, 0x3d816471bc3aa730U, 0x3d9a3f1ebd47864eU, 0x3ad9dcc6bde43656U,
  0x3e0b54413c98ebeeU, 0x3d27828cbc99f0d6U, 0xbd59831cbc5fc959U, 0x3ddb00463b8fbf80U,
  0xbe0e16b53d9470beU, 0x3d9782afbbaa580aU, 0x3c8d45ea3d5156caU, 0x3cdbcdb7bde664a5U,
  0x3dfd187e3dfe33a6U, 0xbdf9506dbd24ebfdU, 0x3dd00c483db76b3bU, 0xbdd6f5903dd80c9aU,
  0xbbdac58dbb3aa859U, 0x3e0d5260bdc0e25eU, 0x3c8a1d97bd6e7efdU, 0x3e0586d6bd14c0a5U,
  0x3d4588d03da0578aU, 0xbd8dd4773d5697c8U, 0x3cc09eb5bd2158e1U, 0x3d0209db3dc7813cU,
  0x3ce288b7bd7704ebU, 0x3d3c6ce9be10db24U, 0xbdaf836bbe0bd93bU, 0x3e03b3b1bde0cfd9U,
  0xbd25428e3dd68d27U, 0x3d92c7b1be1777bdU, 0x3d2b8de23d88d01aU, 0xbc712d96bb796040U,
  0x3b3efd59be0c991aU, 0x3d80e2d03da05c73U, 0xbda775013dadd9a0U, 0x3d94fd42bd7e7adbU,
  0x3cca31273df5e695U, 0x3d4335b73d9e6f02U, 0xbd26e38b3d28aa1aU, 0xbdde4af23d1650cdU,
  0x3cb73179bd069439U, 0xbd97b387bd18123fU, 0xbd8555d53e050adcU, 0xbded55053e0e9fd1U,
  0xbe09fd903d658667U, 0xbd1c6b753c63677fU, 0x3c38b9433d1afa68U, 0x3c6d242dbdbb3e52U,
  0x3e3dc11bbe15358eU, 0xbdf8f17e3d7d3db0U, 0x3e09ad9b3ca6d832U, 0x3a8a69ad3a92ccedU,
  0xbc9624473dbeaf8eU, 0xbdfedcac3e2308f6U, 0xbdd9f5903c28e20bU, 0x3d96c4133e0db3c0U,
  0x3db4cd6bbdfedad8U, 0xbd8a16a2bdde9a9bU, 0xbd000b6e3c7148ceU, 0xbd3d07483e1c42a2U,
  0x3df451733c7b454bU, 0xbb8d84303dde1fdeU, 0x3dfa8f24bdfb0968U, 0xbc8ce73fbd69c085U,
  0xbda7e7bdbd66d55cU, 0x3d7357833e1c7929U, 0x3cf7a8af3d15749fU, 0xbe0e00093d23863cU,
  0xbe08831abda10cfbU, 0xbd34c260bc3f69faU, 0xbcbeadb9bdfb6fa2U, 0xbd8d1ef23ba88960U,
  0x3d2a2e9cbd89fcdaU, 0x3dd4efdcbd897e34U, 0xbcc373cabd43f261U, 0xbd7bfe8bbd1f6400U,
  0x3dd3ea4d3cf201fcU, 0xbdc301143de4e507U, 0x3db36dfa3d28a030U, 0xbde98080bd1234dcU,
  0x3df525e63e0bd59eU, 0x3c2532dabe139a59U, 0x3da697f8bdc27520U, 0xbdfa55cabc4a7956U,
  0xbcc6d1453d02f032U, 0x3dd92e713d4fd6c5U, 0x3c8f4bd33ddcf73cU, 0x3d2e06f3be144074U,
  0x3d4e074c3a99e000U, 0x3e0867febe0aeabeU, 0x3e0e0ff93d2541d6U, 0x3d8b2cbebd6be650U,
  0x3e0ff4643d36c144U, 0x3dca0baabcd7d7d8U, 0x3de32fc83caacaa8U, 0xbdcaa894be127d91U,
  0xbd8dc2b6bca15350U, 0xbe08d4903b13e280U, 0xbe0532033e108bacU, 0xbd9db8323e0aca7eU,
  0x3cddd658bce6b688U, 0x3ddda87c3d6ccc9cU, 0xbc9c1bb83c72fc20U, 0x3d5b5730bd1b83fcU,
  0xbd1b5098bdb9eeabU, 0x3cd7b0a0bdd2f5eeU, 0x3ce61920bdba2f00U, 0xbc936c903dbf5370U,
  0xbe035887bd5d5f46U, 0x3d844ce03c009120U, 0x3cf535a8bda60cd2U, 0xbd09be72bda243dfU,
  0x3c7575d03d15fe28U, 0xbd7fb9903e03f9e4U, 0xbde06fde3db128e6U, 0x3d443a08be01b71fU,
  0xbdb33204be0b1babU, 0xbda363673cc34d98U, 0xbce2fa66be01a2f2U, 0x3db2a1e53da2e0f5U,
  0xbcc4d592be290d16U, 0x3dbc1128bd3997daU, 0x3cf501dd3e0b73c1U, 0x3e0156393d98cd47U,
  0x3d030b86bd82fbbbU, 0xbd41be173d107775U, 0xbdc70f1a3d8bc396U, 0xbdfdd5f9bdbdfbdeU,
  0x3e0a00c4bd1d6f04U, 0xbda581093bb63919U, 0xbbf67b223e0fea65U, 0xbc49de043e13baadU,
  0xbdb6b7413cde8568U, 0x3ddbd4de3dab417fU, 0x3d49deff3dcaa480U, 0x3db337b63dbe7f3bU,
  0x3df9221b3dd6138fU, 0xbdb00bbcbe1c8fb3U, 0x3dcfb452bd6d743aU, 0x3c9251393e18068eU,
  0x3de44e173d58c8b7U, 0xbc30ea233dd52ee2U, 0x3e0244723b940a45U, 0x3b24b33c3aa69ca0U,
  0xbe0bd991bd1f3f10U, 0xbd8300fdbd44a682U, 0x3d290dddbc38aca0U, 0xbe16359ebdc782a3U,
  0x3dd32ed8be128bf0U, 0xbd1184dbbdc91400U, 0xbc7101303db94686U, 0x3c919b483d06a44cU,
  0x3dd43ef23dc85d43U, 0xbe048e003e0b3bd2U, 0xbcd1f17bbdff00a2U, 0xbdbdba333c9efea5U,
  0xbd3ac909bc926860U, 0x3dba9911bdd14053U, 0x3e01925a3db3b7eeU, 0xbdcad2423e0b65f6U,
  0xbe0c2764bdef3b1eU, 0xbd56dc46bd96855cU, 0x3d3b146abda6607eU, 0xbce5fb363dcaa9f3U,
  0x3db7cd86bd2a34aeU, 0xbbe38b3dbd5f41bdU, 0x3d3a3d853dd243ffU, 0xbdf977bdbe0e0802U,
  0x3e1a78c03d36bf25U, 0xbd046df8bce5a988U, 0xbde71a5cbce10463U, 0x3e1c7a54bd516682U,
  0x3dae901f3dbba11dU, 0x3ca544cc3d56c8a4U, 0x3daca8213c4b6918U, 0x3df021e2bd780634U,
  0xbc0003babd9ed57dU, 0xbcaea3a4bc0e123eU, 0xbdd00820bd19a624U, 0xbd24864d3e13a7b1U,
  0x3dc6f64d3de43aa5U, 0xbda2e206bd0102e5U, 0x3bcaf190bbbf0af0U, 0x3dbd918abdf5a2c4U,
  0xbde19b8dbd331039U, 0xbd59000c3e2812aeU, 0x3dbb2169bdfcb483U, 0x3af975e13d132eb3U,
  0xbd87194e3e144ef0U, 0x3dc5900a3e1189f2U, 0xbc5bb059be0b1559U, 0x3d9a87ef3cd5e3dbU,
  0x3d669134bbebe3ccU, 0x3cb541703dd9c4b0U, 0x3da88c063d17623fU, 0xbd551994bca0212eU,
  0xbd677b8ebc96d395U, 0x3c90dcf7bdcbc5bfU, 0x3dcd20cfbd23522aU, 0xbdd921bbbd0650b6U,
  0xbdb0a259bdc9ac16U, 0x3d97b353b9b4764bU, 0x3dd7d650bc89f592U, 0x3d03b5bcbde3a425U,
  0xbdf647163d25d33dU, 0x3bfd672f3e0049f7U, 0x3dbf514fbdd51140U, 0x3c87e25e3bc95f2bU,
  0xbd897612bd9da111U, 0x3da5d1c2be09bae3U, 0xbd5285dbbd9bc728U, 0xbe05c5633d975da5U,
  0xbd21f211bdb76eb0U, 0xbc8637df3e1d9b49U, 0xbdb1f4173dfdfbc9U, 0x3d04b2403ddddb47U,
  0xbda73976bccd5758U, 0x3e0d80e63c82b728U, 0xbe0728013d443333U, 0xbd78a1243e1b0ae4U,
  0x3cbda3df3d76e47fU, 0xbcd616253cd5fd5cU, 0xbddddc93bd49b627U, 0xbe0b0697bcfad2fcU,
  0x3cbe2c243cfe9160U, 0xbd3381e4bdd41d91U, 0xbd1701713dccca0fU, 0x3d1585c13ce8efd9U,
  0xbda93a0abd273897U, 0xbdca48efbd1a74faU, 0x3d3cc14abe03ec16U, 0xbd3bd6dbbdde4a35U,
  0x3dee37213c770998U, 0xbcc687c33db6071cU, 0x3b95e3cb3daf3c0dU, 0x3d4ffad13d3a9117U,
  0x3cb899683e04adf4U, 0xbde8b42c3e0d7d94U, 0xbd2512203e04776aU, 0x3d4bb8fc3d2fa148U,
  0xbd673b4ebafa0e80U, 0xbe028f223dfbdb20U, 0xbdd21014bc63a370U, 0x3e0f37ee3d2f057cU,
  0x3db82528bdf68373U, 0xbc8a7bb83da2801eU, 0x3c11cc703e094caeU, 0xbde3de6abd5bad2aU,
  0xbe0d6238bdc997aaU, 0xbdd0575b3d8e42b4U, 0xbd4324103dbcfe20U, 0x3d8a9860be05f556U,
  0xbdcd7727bd42f92cU, 0xbdb036583dbe386cU, 0xbdcfc311bc6a54d0U, 0xbe001fb6bd9ec894U,
  0x3d71eea43dac8712U, 0xbdbfe35cbe0f3dadU, 0x3d2a7374bc23acd0U, 0x3d375460bd203adcU,
  0xbd082120bd794db6U, 0xbd69bb023c1b1670U, 0xbd036759bd942cd3U, 0x3de7051e3ddd0012U,
  0x3cf624ae3d8892eaU, 0x3d8af508bc366c10U, 0xbdf1aef63bd28069U, 0x3daa347dbc4974e8U,
  0x3bed382d3d400b92U, 0x3d0d1892be1bb9dcU, 0x3d0cafd03d5f0a4fU, 0xbd12db5abcd73a90U,
  0xbd2d032abe14c394U, 0x3d358fe1bda2f5d9U, 0x3d04a11ebe085673U, 0xbd3a98e3bd226b28U,
  0x3cbf9dcc3e025101U, 0x3db42274bda0cd8cU, 0x3d0d859c3d69a981U, 0x3ded21cbbd23e77eU,
  0xbdd8a3c53d1941c4U, 0xbd2c162bbdf585b0U, 0xbdf7b4a03d732752U, 0xbd925054bd3bc40cU,
  0x3e0112b13dc50f7cU, 0xbda9d5c3bd825dd4U, 0xbde084fabce8cec8U, 0x3be39b973d8ee872U,
  0x3dfc74febd143e31U, 0x3d59c7fbbb1ac900U, 0x3e08711cbd7ebf59U, 0xbd7aec203dee03e0U,
  0xbe1688b13db58023U, 0x3bcdff483daba930U, 0x3cb899f13de7af5cU, 0xbdbec66ebd30e302U,
  0xbd3148583d83309aU, 0x3c8dc06d3d6d226fU, 0xbc2c070fbd93ce3aU, 0x3cb7e548be00f476U,
  0xbded7ac03d8ec75fU, 0x3c92a5da3de73e4aU, 0x3d2940553dc69ac5U, 0x3e048961be141a18U,
  0xbab49d0e3da221c4U, 0x3d881c7a3e0842feU, 0x3cb48520bdf1c12bU, 0xbe0a31de3d9b9b5eU,
  0xbddaec1abdffa422U, 0xbd2f5c483bf718a0U, 0xbd34dea4bdd9b9a6U, 0xbd2645cc3b2a63c0U,
  0x3dc51b0cbd69fd44U, 0xbde57df6bbf58280U, 0xbd4b6844bd5032a6U, 0xbd445dbe3e0ab080U,
  0xbdc88adabe0a0174U, 0xbe0eadc13d8c484eU, 0x3df3506c3b999840U, 0x3dace73cbd80fd53U,
  0xbe05023fbd730992U, 0x3be91620be105258U, 0xbd43930e3e1297a8U, 0xbc9b2a983dc220bcU,
  0xbde22e8c3d7d05b0U, 0x3d4f26243db41e4cU, 0x3cbc57b83df42d0cU, 0x3df3fcb8bde3780bU,
  0xbd278a0ebd4d5250U, 0xbcb7a1d8be050c8fU, 0xbcdfefe4bd0d8e1cU, 0x3ca1dd883d8e7c52U,
  0x3dacfe23bdd8b2b3U, 0x3d226e3c3d726a0fU, 0x3d35b41f3d58e8aaU, 0xbca520f9be0473b3U,
  0xbdd2b665bd7e8129U, 0x3d041230bddc3760U, 0xbe109371bcdb22c6U, 0xbc42a0a23dfb24caU,
  0xbc985c153e0a3ecdU, 0xbde60f923d1dec24U, 0xbd67dc16be14b689U, 0x3c35c25ebd58ba5eU,
  0xbd80dcb93dce9c13U, 0xbded38debd244bb7U, 0xbda129743d70e504U, 0x3d9451ce3d6cf297U,
  0x3d934242bde2c62cU, 0x3ccd60ec3d71b478U, 0xbdd89a43bd1bb1b8U, 0xbd952396bdd37468U,
  0x3de7676dbdf8ade9U, 0x3dcd77febdc1aa35U, 0xbe126b79be137d92U, 0xbcf18cfebc41317bU,
  0xbd176b103e0e9418U, 0x3dd04024bdf5b0b1U, 0xbd895d473de85240U, 0xbd9f7c353d9a8ac6U,
  0x3df0e2103ccfed20U, 0xbbf724e03b7e9bc0U, 0xbd1509b4bd703926U, 0xbc761b10bdce9b84U,
  0xbd5f75663d49c700U, 0x3c96dec83e076e7aU, 0x3d9d1240bdf13aa3U, 0xbddec50ebdb15fdeU,
  0xbd773730bdf97875U, 0x3d1487d83dc6e14eU, 0x3cb84bb03c8a8608U, 0xbda47cfabd6ed9f6U,
  0xbb925de03df2ef70U, 0xbd8add143cc86bb0U, 0xbd1dab883cbb3928U, 0x3d3123b83df5e504U,
  0xbd38b2d2bdc91192U, 0xbd073d54bdb26936U, 0xbd4a52e2bdf41b05U, 0xbe12894bbd276b2eU,
  0x3df722ac3dd9c019U, 0xbcd735003baa293bU, 0xbd806552bd472b1eU, 0xbdb875663e11fb32U,
  0xbe2788373cbac793U, 0xbd7b7e483d9cd6ccU, 0x3d924255bda039d7U, 0x3db176233df19ee4U,
  0x3d74631d3da42d57U, 0x3cf1529a3e0e2a8aU, 0x3d8c720b3dcf13ecU, 0xbd1c74413cfdf1b8U,
  0xbd7193423e03782cU, 0x3dd257893dec0cd1U, 0x3dc2db3ebdb41092U, 0xbd225ccbbde73c6aU,
  0x3e10836d3dd6ca57U, 0x3dc088d13dacc539U, 0x3e131adf3d8717dcU, 0xbdbac8d33db98a9cU,
  0xbd5b35d9bd74366dU, 0xbde9fb4ebd75c129U, 0xbde0a1f63e03fd7bU, 0x3e0790843d9aeed3U,
  0xbe0a1cfd3d36323cU, 0xbc7582ffbe1346dcU, 0xbd2836d13daa60f5U, 0xbe060beebd45f2b8U,
  0xbd076632bdd362b4U, 0x3d3b48043db196e8U, 0xbd4e45e5bdf4d7c0U, 0xbde137d4bd15ec4cU,
  0x3ca7e990bcde7399U, 0x3d339a3bbd03e544U, 0x3d3ca82cbd8bce7eU, 0x3ca977503df9504cU,
  0x3de2cb44bc8d6c04U, 0xbd9ffddbbdd2cbf9U, 0xbdab36f9bcbf6592U, 0xbd5a6658bd6930deU,
  0x3ded39343c69c268U, 0xbd62ef4d3e0be6a9U, 0xbc958bc53deea207U, 0xbdbbfd2bbc907a78U,
  0x3dda90383c96b910U, 0xbe12e3b0bc167315U, 0xbd3a22423c904c11U, 0x3d099df83c7287faU,
  0x3d0b951a3d38dce1U, 0x3df73293bd9dd646U, 0xbaff678b3d0441e4U, 0x3d8ef0ebbdbd58e8U,
  0x3b253a35bdcab537U, 0x3d957588bd66c468U, 0xbdccaa483d84be83U, 0x3df7ff2abc930093U,
  0x3dfc8e283cdb0622U, 0xbdf8a66dbd58ab13U, 0xbdfac87b3d99baf8U, 0xbb3c35da3867c000U,
  0xbc3b56173d7d151aU, 0xbcdc3d14be0a61daU, 0xbdb59bd83cff6a3dU, 0xbd328cf73de3a968U,
  0x3dbddccc3df85469U, 0x3e0c41cf3e0b15a5U, 0x3d4c40513e028a09U, 0x3dcc5c9d3daccbffU,
  0x3dcf3d0c3deb6c4aU, 0x3d4da95d3daac471U, 0x3c495230bdfb977fU, 0x3a765168bdb6f4d4U,
  0xbdde6d6f3ddf764eU, 0x3cc0f0963dd1acdfU, 0x3dc0ef5c3daab3ecU, 0x3def802ebcac7b7fU,
  0x3d1099d9be052a5eU, 0x3da3bd64bc8b6698U, 0x3d4ca186be0403b4U, 0x3d21d5f9bc351720U,
  0xbd5508bfbc31bb2fU, 0x3de700a0bd814f64U, 0x3dbafc11be359b42U, 0xbd3d94f13d96f500U,
  0xbdcaf1ec3d9f10daU, 0x3dcbaf6abda5f497U, 0x3b2a66d8bc875449U, 0xbd6d6994bd92320dU,
  0xbd8d327fbdcb2ca7U, 0x3d1727c8bb7de3afU, 0x3b72e2673b1c9962U, 0xbde0a17fbdda2c75U,
  0x3e0214423e1303afU, 0xbdb0ee933d743df5U, 0x3d1e45e43d8b4807U, 0x3d6d8ea03e0dc7c0U,
  0xbd1bca1cbdc45fc6U, 0xbd4e5d56bd384b1eU, 0x3dd40ca2bdc24b80U, 0x3db084babdeebbc1U,
  0xbce74c003dfe6e00U, 0xbdd7422ebc44d080U, 0xbd3a4eccbd84bc97U, 0xbc6ff4d03d83768eU,
  0x3c01e1203de29050U, 0x3daf4c1ebcd6eda8U, 0xbe0d8b263dcf9a68U, 0xbdee9c71bcc71dacU,
  0xbc3d40303de19a54U, 0xbd9a5a0d3cd995c0U, 0xbdf46247bd99d57fU, 0xbd322fb8bc929920U,
  0xbd8dab0dbe0a3fc5U, 0x3ce309c03d6385f0U, 0x3e07c18c3d0a9300U, 0xbd3422b23d8a340aU,
  0xbd6b7cd2bd919be8U, 0x3df722f4bdf03eb9U, 0xbe068ccdbd7a1b3aU, 0xbc480160bc1df280U,
  0xbde20768bdd7e80aU, 0xbdae9b65bb931ce0U, 0xbdea8664bd5bb3ceU, 0x3bf87420bccd34acU,
  0xbda526c13dff0f94U, 0x3db69a70bb745200U, 0x3d94703a3c312b20U, 0xbdde0371bd85f537U,
  0xbddddeda3db37530U, 0x3dc989f6bc17c6c0U, 0x3cdf82783e02a3b8U, 0x3dcd52fcbd2040b0U,
  0xbb9758203c567520U, 0xbd45e582bd4e2cb2U, 0x3d01f5803de69ff8U, 0xbd88848ebcc8cd80U,
  0x3cf78310bdff6744U, 0xbdb667f2bb6586c0U, 0x3bd4a480bb9bf200U, 0x3a56e0003dacfa12U,
  0x3dde4b64bd4a146cU, 0x3d76208cbde78794U, 0xbc7d16c03e13b690U, 0xbda3ce2b3d4487e8U,
  0x3db15570bdecdd75U, 0xbdd660f0bcfdfcf8U, 0xbdeb28d1be113829U, 0xbd4d1968bc922e10U,
  0xbde6af6a3df7492cU, 0xbcf5117c3dd2ebbeU, 0x3db4af84bd281b4aU, 0xbd9ce0523d548250U,
  0x3d10b2e43a9e6180U, 0xbc163410bda17785U, 0xbd491f28bdf8b16aU, 0x3dd989b8be0a5b02U,
  0x3c7d6750bdd62a3eU, 0xbe100c1bbd49785cU, 0xbd5332debc917f98U, 0xbdd628afbdf596d6U,
  0x3a955080bc1f9c80U, 0xbc82cbc8be124a9dU, 0xbdd3a8c83da154acU, 0xbb3e4d003dec9bccU,
  0xbd37835a3cc68800U, 0x3cc10af8be02eba2U, 0xbdec5de13d847314U, 0x3ddde4ec3de94ef4U,
  0x3d024a0f3db897fcU, 0x3e165c2fbcc720abU, 0xbd7551b93d9419b6U, 0x3e0974c1be0d0b79U,
  0xbdc34ccc3c942e01U, 0x3d230596bda16301U, 0xbd3a9961bdada92bU, 0x3d494a1fbd1a3fe4U,
  0x3da1c89bbda96a48U, 0xbd37074abcbf17d8U, 0x3c29e9d73e0da143U, 0xbd8e9ee13cca12f8U,
  0x3d0cf6d53dcead5eU, 0xbd1ef45f3dc262c3U, 0xbe09ceeb3d881993U, 0xbd4505283d33313cU,
  0xbe0689d2bd202cf1U, 0x3d33af7c3df61692U, 0x3e1a1d1dbc55a2bfU, 0xbdbdceb93df69638U,
  0x3dd6df2a3e129154U, 0xbdc85cf53dcbc6c1U, 0xbdf0d3d43d36ec1aU, 0x3e090ccbbdce0f86U,
  0x3d11339b3da0420dU, 0x3d83443c3e01547eU, 0x3d068ba2be0a3224U, 0x3d93eac1bd5cdbccU,
  0x3e358bc73cc41c6bU, 0x3b6286003b942120U, 0xbd982f6d3cccfebbU, 0xbdfc94963dcefcc1U,
  0x3e134a353daddd52U, 0xbe198544bd3a1606U, 0x3bddcb653dcbacf6U, 0xbcc245d0bcec927cU,
  0x3d3f9359bcb826c4U, 0x3dfab4e23dca8648U, 0x3b962fa0be06caf1U, 0x3c3196053d966a9dU,
  0xbdc1ee1c3dc9dfcaU, 0xbdfaf556bd5f3849U, 0xbde9aee53da2d185U, 0xbddd241e3c202870U,
  0xbe084b883af871b2U, 0xbe0465f3bbd88339U, 0xbdcc5007bdb5b6deU, 0x3d83b22a3e163bdfU,
  0x3e10d0943dcb7ecbU, 0xbd572a043de442d3U, 0x3dacaf753e09b204U, 0x3db812613dc1b782U,
  0x3d7bde173de2a3a8U, 0x3dc73d13bd69d2a0U, 0x3d0824afbc852d5fU, 0xbdaa3fe6bdafbab7U,
  0x3d41beddbd51a0d7U, 0x3d0ac7873d750884U, 0xbd3c846b3d74342eU, 0xbca17fc73e0d63d0U,
  0xbd076307be09a18eU, 0x3e0230e53db0c11fU, 0x3d6fdceb3c9eaf14U, 0x3db522ba3dd62a24U,
  0xbdf9d5543cbd0fddU, 0x3dd9cb2b3db0347aU, 0x3db9675abd8dcd18U, 0x3cac0a563d13342cU,
  0xbd6aaa43bd0bf144U, 0xbdc54ee0bd9d1444U, 0x3dde7adfbbe0673cU, 0xbe0b48543b9b721fU,
  0x3dbc3d4b3db5d232U, 0x3dfd844fbca2b79bU, 0xbd993fc23d39215eU, 0xbd78446fbdf35ae9U,
  0xbd4017a0bc85c9bbU, 0xbda6b0bb3d22d158U, 0xbd98ad4dbdf435f8U, 0x3c41692fbcbf5396U,
  0xbcc8a633bd35e87aU, 0x3d180c503e07ab72U, 0x3c5b4d98bd8bb714U, 0xbdce82d3bd3909eeU,
  0xbddb4bae3c4911c6U, 0x3d2374553cff9a1eU, 0x3dd277483c10be8bU, 0xbd89edc5bd85c5eeU,
  0x3d4a8fc5bd13dc50U, 0x3dcf42eb3bc6456cU, 0x3cf6f0403d5c55aaU, 0xbda990f43d69a94fU,
  0xbda9d4263dab8e5fU, 0x3e00f24d3d0c4f21U, 0x3d7bcdefbd4850e0U, 0xbe11f0d03dc23a9fU,
  0x3ccfa1963e050853U, 0xbd2a6e40bd6ff11eU, 0xbdd1354b3c11bd05U, 0xbdbaa63c3e06c835U,
  0xbd1fc980bde15276U, 0x3dccb0dc3df60ad0U, 0x3ddfb5963df46cd3U, 0x3dd79708bd8adcc6U,
  0x3c981ea4bd86a070U, 0xbdb2b4583dc4719fU, 0xbd71166a3e136b48U, 0x3dfa8be0bd8f135fU,
  0xbda7baeebde4f434U, 0xbdfa59643e08b1d5U, 0x3d0b2cb13d489a0cU, 0x3bf7d968bdfd5234U,
  0x3c14d878be11940dU, 0x3e05324bbd92037dU, 0xbd19ae9bbe0115b0U, 0x3df0402d3d3ef0b6U,
  0xbd5facae3cf620fbU, 0x3dc47c22bd020214U, 0xbd5eb9403cf289e8U, 0xbd89f383bdbf2fd8U,
  0xbd54bc9b3daf2998U, 0x3c3c0fc6bd2e8b4bU, 0xbd18188abdf38a9eU, 0x3be462ccbc98028cU,
  0x3dec006f3e4444c6U, 0xbcbcacc3bded9e2aU, 0x3de83d273d934d04U, 0xbc90d108bd974df3U,
  0x3dc2d81f3cd492b7U, 0x3d9f9ffc3c37c61cU, 0xbd46e9ea3d7255edU, 0xbd191018bddd9572U,
  0x3db707e7bda25785U, 0x3dd92728bde0eb9fU, 0xbd10cdecbb8b37c4U, 0x3df2db523d838799U,
  0x3b932f99bd32f6b1U, 0x3d23b9193e14038cU, 0xbd022a68bdc34bdbU, 0x3dd67939be2e32e5U,
  0xbdb50c8abd5efc9cU, 0x3cb8909c3d86d9b2U, 0x3cb306523de6fa3aU, 0xbd1a22a53d1a7f84U,
  0xbd9acb833a2dc92bU, 0x3dbf2292be140b13U, 0x3e05d065be02f392U, 0x3d47c1c7be098e70U,
  0x3dda09df3e07e104U, 0xbe05c19cbbff1b80U, 0xbe07d8e8bd446ef5U, 0x3d4811e2bdf48b69U,
  0xbd1c34de3cf30f9fU, 0x3e075ad13d7598e9U, 0xbe00c2773cd2e1c0U, 0x3e0e745ebd03bfaaU,
  0xbe0efa27bd5acf3bU, 0x3de911eb3df5ac71U, 0x3da9f7c9bd85e607U, 0x3e0dead5bd838ff0U,
  0x3d6fae503bf37034U, 0x3d55ef7ebd60a5a9U, 0x3d7d938f3ac30c6bU, 0x3d8d84e33c943d49U,
  0x3df8ed5d3ceb6582U, 0xbcfad4d5bd94c2dbU, 0xbd1b3d4dbd7b29dbU, 0x3d5f5346bd8f3236U,
  0xbd8612723dc94849U, 0xbe09a6ddbd81f6e5U, 0x3de32cf63d830a6fU, 0x3cf1f4e23daf2744U,
  0xbdc7fb6e3d6ce5e0U, 0x3dfe6cdd3d6c3e44U, 0x3db6629fbd24452eU, 0x3d8efce73dc60566U,
  0x3c33534fbc95b128U, 0xbd44e3a3bd553a87U, 0xbd9298c23e086bcaU, 0x3df44d82bc1c21f0U,
  0x3d50de2dbd5c5eb6U, 0x3c4357b13d8df9f6U, 0x3dd383f1bc3cc137U, 0x3de28d9f3d9fdadaU,
  0x3c825673bd8885d1U, 0x3d93aacc3d3d907cU, 0xbd40db35bdf54acdU, 0x3d935c33bd526685U,
  0x3deaec4ebdec2389U, 0xbcc0d6bdbd98c8b5U, 0xbd4365173dcf855dU, 0xbcc3053b3dbbd7aaU,
  0xbd9d56203d8eb4aaU, 0x3e08ca33bc527183U, 0x3df15cf13e09e6eeU, 0x3d91b3133dc2bffeU,
  0xbd8f2d17bb60d5c0U, 0xbddd34fc3dbbecb6U, 0x3d1154743d56a5acU, 0x3e04d612bdba3823U,
  0xbdfcca6d3e01db00U, 0x3d6474e0bda50900U, 0x3d864838be09c114U, 0xbdf2cdf63ca9a9e8U,
  0x3de75a57be00dc07U, 0xbd2f36143d48e751U, 0x3d25f12a3cf2c660U, 0xbd9f3f05bc8e1286U,
  0xbd9f31d83da6a397U, 0x3db855ecbe1954fcU, 0xbe06347dbdea9613U, 0x3e0ef74dbdd4f521U,
  0xbd9d0ac83e143d99U, 0x3de87825be1fc40dU, 0x3d5d7206bdd11c0dU, 0xbdc6d9f43cdb666cU,
  0xbd5bf3c43de37a4cU, 0xbdd825e8bd0c5d38U, 0x3d80920ebd46a10aU, 0x3ddfed38bdb9dc54U,
  0xbba763c03db023bcU, 0xbd6350fa3dd3543eU, 0x3d42c2b4bd8fc745U, 0xbdca0151bd4f29b2U,
  0xbd56b0923d1e5264U, 0xbe0b355e3b3922c0U, 0x3da82464be0637a3U, 0x3d478808be0922dcU,
  0x3d8c9b883d0a6798U, 0xbda88e8cbd01f642U, 0xbd66e86c3d5eb410U, 0xbdae16963d19bc34U,
  0x3de4cf00bdb3aab8U, 0x3d4bfd74be103caaU, 0xbd51da843a81e300U, 0x3c697d20bdd2172aU,
  0x3d6c615c3cc43788U, 0x3c84eac03d7c6004U, 0xbd62393a3ddef6e0U, 0x3d818fdebdedea14U,
  0xbdf93528bdc5cad2U, 0xbdf8a03a3da7724dU, 0x3dbe4fd83e05ce13U, 0x3ddefd7f3d84d024U,
  0x3d575d5abc5227b8U, 0xbde43ea4bdc69066U, 0xbd47bb83bda1380fU, 0x3d57ca0dbd97833bU,
  0x3c8f0e263c4acb2aU, 0x3c68588f3bd86d7dU, 0xbdf494613dc54c09U, 0x3dcdfd093e031b2aU,
  0x3db3a4c7bbab302aU, 0xbdf31a89be0e9a25U, 0xbd635c38bddd45e4U, 0x3d3287f13d8dd4c9U,
  0x3d472d6e3cb29ee1U, 0xbe06736abc0d9094U, 0x3df490f73dc59bcfU, 0xbd303160bddbf170U,
  0xbd9c4b59bc052c1aU, 0x3dff72293c9a057cU, 0xbdcb954f3d638726U, 0x3dfdb41e3d6396c8U,
  0x3d7d5ed8bd32b4deU, 0xbd85470ebd9dd04bU, 0xbd0ca2dabda1a228U, 0xbdf362793dc5d888U,
  0x3dabe0463d3c8f8bU, 0xbddec28c3e0f44beU, 0xbdf1ec28bcacc5c1U, 0x3d885562bd99766cU,
  0x3e1d4a8c3d5b33fdU, 0x3d6961a0bd486613U, 0xbe10998cbdf4c0acU, 0x3d81c3863d14aa14U,
  0xbdd9e0af3e150727U, 0x3d74b338bd090bebU, 0x3d98e64d3d5f6e1dU, 0x3cf9053b3dbfbc23U,
  0xbd6413d2bd397c3fU, 0x3d9d023d3cbd99e5U, 0x3ce52e0f3df78b99U, 0x3dba612f3c564a1eU,
  0xbd123f2d3c93b9acU, 0xbd4b807c3e0e339dU, 0x3dac05fcbcb08085U, 0xbc9fca773d535680U,
  0x3d24b9133c6c6df5U, 0xbce28f4dbdc46648U, 0xbe0bd85fbcc31ce1U, 0xbdbf7925bdd08a71U,
  0xbd8cf4f4bca2667dU, 0xbd07a2573db42d34U, 0x3d9bcce63dadb6ddU, 0x3e107c173c684f9cU,
  0xbc41489ebd73201dU, 0xbd90fe69bdc6f81eU, 0x3e164d87bd807644U, 0xbce0c9563db17e52U,
  0x3dd6ab813c3a2fd5U, 0x3d895cf0bdbb92a5U, 0x3dfcfd99bdb53a4dU, 0x3e0812b7bb7da493U,
  0x3e09fc883e0b3d9dU, 0x3d2b38dabe04a720U, 0xbdbcb9fabdf2c995U, 0xbdbcdabdbd47e9e5U,
  0xbdca5cfabe005441U, 0xbe0b665abdd22f6dU, 0x3de06e87bd2fb1afU, 0xbd3ff4dbbcba89a0U,
  0x3dc975d73df88cbbU, 0x3d1e2f273d747a3cU, 0xbdadc1273d97791aU, 0x3d61ffe63ddbaa0fU,
  0x3d006f9bbd8ba090U, 0xbc26773f3db511eeU, 0x3d1af9cdbd7b5f73U, 0x3c45c31fbd210a7bU,
  0xbca010c5bdf6d177U, 0x3df0cf2b3d967038U, 0x3d181909bdcf8c56U, 0x3d7ee70dbdbfe4eaU,
  0xbda5bcb7bdd2d79fU, 0xbd118df13cc0f237U, 0xbdac64a6bdd07c43U, 0x3dda9100bd92eb13U,
  0xbd130a0cbe10ff44U, 0xbc777b21bdedce42U, 0xbc6e6132bd976b1bU, 0xbd886d203dfcd431U,
  0x3dd74f59bde663f3U, 0x3e03fb223df2b924U, 0x3d2774be3d9ed9cdU, 0x3ddeb6c93d0a8f09U,
  0xbde97946bda9d7a7U, 0x3d93fa98bd0e9b90U, 0x3deb3370bd2c77ceU, 0xbc6fe226be0f5a4cU,
  0xbd89f057bdbecaa7U, 0xbc0c383dbddb4364U, 0x3e01b7633c781fc4U, 0x3dc5fcf9bdaf2505U,
  0xbe0120ba3e003509U, 0x3d58b8adbda27c60U, 0x3dfbd7a83da9e0dfU, 0x3dda66d83da89104U,
  0x3de6ac343d4db334U, 0xbd9405313dabb8ebU, 0x3e0452ef3d4f4d7fU, 0xbddcf14abde1e78dU,
  0x3dc4e28dbe18d3a1U, 0xbe0a85a5bdbf3a2eU, 0x3dfcdd6fbceb706fU, 0x3d7d481fbde4fa64U,
  0xbda9b85c3de1b3fcU, 0xbd50b202bddd8a91U, 0xbd18e51ebc9bd204U, 0x3c64b4ebbd3593f6U,
  0xbdd4ea593de04974U, 0x3ccb25c0bd6216b6U, 0x3d6a3bc83e1296beU, 0x3e04546e3d730c74U,
  0x3e0ba24abcd029dcU, 0xbd6be8ee3dd384d8U, 0xbda8b4cebd7d3b0eU, 0x3dc7ec7abdb7f872U,
  0x3dd6eaaabdffe18eU, 0xbd1d9f5ebddfe504U, 0x3d67ef903d360be4U, 0x3d891c023c319220U,
  0xbdb508143df45e7cU, 0xbdfa47d33baa4ae0U, 0x3d6aed283b5a87c0U, 0xbdc097e43e0e67a8U,
  0xbdf14207bdd025e4U, 0x3cff97d0bc8af818U, 0xbe126ee03dd21ee8U, 0x3da92234bd94f870U,
  0xbd8b5f843db64c94U, 0x3d9ea4603d965202U, 0xbd515c663d979230U, 0x3cc5ad78be055e1fU,
  0x3d7abf29bcd4da27U, 0xbdcb94be3db0118eU, 0xbdca45f6bdd0d826U, 0x3cb9895dbdc706c8U,
  0xbd85ca62bc9e0202U, 0xbd90a7333c6fa200U, 0x3e0ef2cebda26d0bU, 0x3db14d5b3dac5471U,
  0x3e0218e0bd5d4a7eU, 0xbb7b77b43d53508eU, 0x3cc4e48bbadaed71U, 0x3c4c5e813da34058U,
  0x3e14c1e2bce17ed5U, 0x3d48f3593d86b903U, 0xbd9ea1273c27f90aU, 0xba7517f9bdd18439U,
  0xbc071d7cbd997b07U, 0xbd93e12abd2fb936U, 0x3d742f613e05ca18U, 0x3d37d57ebd07518dU,
  0x3cfd1df2bdcc84ebU, 0x3d16dc19bd0eb945U, 0x3d8192903c83185eU, 0x3da802f3bd82787eU,
  0xbd986447bd9258feU, 0xbd8079f03dbcc33cU, 0x3c6b2c27bd56d151U, 0xbd7ae782bcd7b0edU,
  0xbc8100023def7dc9U, 0x3d8beee0bd1a5cfeU, 0xbda264ca3def6d35U, 0x3d103b2f3e114893U,
  0x3d4565963d89daa7U, 0xbd7d1d98bd810bedU, 0xbc88c95b3d0ab452U, 0x3e03def73bb646a0U,
  0x3e007c78bc51bb68U, 0xbdb488753d7e9ed1U, 0x3d2bbf6b3c83ed9fU, 0x3e05858ebe0eb60eU,
  0xbd6e39413d8dff54U, 0x3dee91373dbaaefdU, 0xbe07bdf53ca95e74U, 0xbca809643d96b138U,
  0xbe01e92fbdc99516U, 0xbd1e20703ddd9cbbU, 0xbd104e9fbbf6a8aaU, 0xbda4bb413dfeb02fU,
  0x3d1010d03d50d9acU, 0x3cf0b500bc65bb00U, 0x3d70c12c3d8a3d1aU, 0x3df558543c8829c0U,
  0xbd5ef33a3e0735b2U, 0xbd8052cebc467060U, 0x3dd23ecabcd50eb8U, 0xbcb5fa94be139fb5U,
  0xbde18784bde6d160U, 0x3d0919d43e010426U, 0xbe0402a13c7d4810U, 0x3e07511cbdd0cb4eU,
  0xbce91cf0bd44d5acU, 0xbda505cdbb36c400U, 0x3d6d27983df1dbacU, 0xbdd8ffa6bdaaf473U,
  0xbdcbbf08be0902f0U, 0x3c59d0e0bc001d30U, 0xbce6ba9c3d53f804U, 0x3df49e043dc52beaU,
  0xbdee53ccbce3c6c0U, 0xbc866eb83da1c87eU, 0xbde05fb43d6fa310U, 0xbdfe966e3dfd2adcU,
  0x3dc122f93de52b85U, 0x3d175b5fbdd2ad95U, 0xbde44d4c3cd93d68U, 0x3cf32771bd5801a3U,
  0xbdedc1103bf8a648U, 0xbe07a061bdcab752U, 0x3df53a373ddde5d1U, 0x3dd6a4513e1103aeU,
  0xbdd8d4a3bd4cc8d7U, 0x3e0c79153e2897c2U, 0x3e011d793df74ccfU, 0xbc12afebbdee2d3bU,
  0xbdc1a4e63d8dcecbU, 0x3d5f6bcebbbb44a1U, 0xbd50ec5fbd5dc2deU, 0xbe1117913c01e9f1U,
  0x3ddb1b5b3d13bb51U, 0xbdc6ff8abdb29179U, 0xbdeb139bbde054f1U, 0x3df84ab63d0d50b3U,
  0xbc7b17a43db272b2U, 0x3cbd78063b3725deU, 0xbd311936bdb4b0c4U, 0xbd61a6f23db71b19U,
  0x3be202a03d34af8cU, 0x3d4c1c5c3d9f5cdeU, 0xbdb9ab3cbc0e7c30U, 0x3e019e063dafc3e8U,
  0xbd9412d8bd8a6651U, 0x3ddd2040bd382122U, 0xbdf92c783d863de6U, 0x3e0153883dc37e48U,
  0x3dd0d034be0a6fd0U, 0x3d4a704cbceb1a18U, 0x3e0d1cacbac06000U, 0xbd7b0c08bde2f09aU,
  0xbdeec692bc8fbc88U, 0xbd21110e3d8696e6U, 0x3b0c2cc0bde695dcU, 0xbe041834bd8c377dU,
  0x3c980cc8bdfb0972U, 0x3de44d383dd82204U, 0x3db1489c3d8250c8U, 0xbd68b5b0bdebd566U,
  0x3d2028e03dac3eacU, 0xbdd5858cbd582e4aU, 0xbca5d34c3de058a0U, 0xbdf76afcbda4c9e2U,
  0x3dd43042bdc03992U, 0x3df12d3abd57ccd2U, 0x3d65a7efbcd499ddU, 0xbdf3432dbd2aabc1U,
  0x3db42f65bdf12dc7U, 0x3ded99b6bb960c60U, 0xbd5704433e0c6b5eU, 0x3cf248afbdd14573U,
  0x3e1161973dfd5204U, 0x3e144877be223fe2U, 0xbdf2ad2cbe53b99fU, 0xbe18d9e9bd96717eU,
  0xbe075ee1bcc97157U, 0xbd91cc22bda8f9ccU, 0xbddeace63d759992U, 0x3e0203ffbe003d9bU,
  0x3d28da43bd5d92ffU, 0xbdf579d2bd0f2b37U, 0xbe08f8cc3d907be8U, 0x3dd272943e029318U,
  0xbd89fd4dbd19decbU, 0x3dbcf22c3d86d5ccU, 0x3de92896bda057d0U, 0xbd9a27013d45606cU,
  0xbdb7376d3dd93919U, 0xbddf4970bd02390dU, 0xbc98f7393da173c5U, 0x3c80e5c2be145158U,
  0x3cec3dcebc77d7a4U, 0x3dd4acd33de1afecU, 0xbce2e438be129844U, 0xbdf36c763cff3e0fU,
  0x3e0873833d8e4f1bU, 0x3c8ef227be1f4e5dU, 0xbdebb29e3dff342fU, 0x3b400823be0f9c51U,
  0x3df95ef83e0f1047U, 0x3d91da3f3d9bae48U, 0x3ddcdb253df39c6dU, 0xbda01663bdba5a48U,
  0x3da38c3dbdd5653fU, 0xbccf20e93e00cc8dU, 0x3ddc7df33d9dc020U, 0x3da69f5cbdf9d9a1U,
  0x3da194db3d587ae6U, 0x3d4dce823cea8e93U, 0xbdb49a8c3de0b19bU, 0x3dc382aa3daec17fU,
  0xbdee2934bdf6eed7U, 0x3df7f7ed3d9c3700U, 0x3d8db3ae3db59005U, 0x3ceceae73c60be8dU,
  0x3d5648eb3dfedf87U, 0xbdf431e03dd33132U, 0xbdeb0446bc7806f5U, 0x3cedf898bd577a02U,
  0x3d925017bd90df28U, 0xbd8df466be49e7d3U, 0xbd92598ebda82e64U, 0x3d47bf1ebcbb4ec8U,
  0x3de595043cc86a23U, 0x3ded50343cedfe16U, 0xbd8cf31b3d55ee3eU, 0x3e0ed2593dee30e0U,
  0x3d9f7e01be1442c1U, 0xbe074c1dbddab2c2U, 0xbd813f1f3d70ad55U, 0x3daab0d6bddf790cU,
  0x3d85dc5b3db0c39bU, 0x3dbcf9b73c8a1ba8U, 0xbdf76df8bdb1ce6eU, 0xbde46a3a3de189c7U,
  0xbc1597d3bdce5d93U, 0x3dcc1d913debffe7U, 0xbd2e3e953d664700U, 0xbda18656bce33bafU,
  0xbcfd44db3e1746e8U, 0xbddfd64f3db54d42U, 0xbd1ccecabcfe6506U, 0xbd810d863e066886U,
  0xbdcf0ea3bd9aa4eeU, 0xbdd68df23e0383c5U, 0x3db43676bd7ad136U, 0xbdec67a73ce707c0U,
  0x3e0365d0bde7e1e4U, 0x3ae91588be153031U, 0x3d9327883dacf010U, 0xbbae34903c5bd213U,
  0x3cad216e3db97d41U, 0x3d9c217d3e0b9442U, 0x3de3db603e1789a2U, 0xbd27209bbd0537e9U,
  0x3ca505ccbd85cf81U, 0xbca1641dbd4a38bfU, 0x3da28452bdb20012U, 0xbda2ef253e027037U,
  0x3dd6be10bd47f08eU, 0x3c694570bdb0dd86U, 0x3cdaf3283d667a14U, 0x3dcb98443dd76ab4U,
  0x3d78bd00be0519b0U, 0xbddcdd6bbd81f547U, 0x3d2648b0bdd542f4U, 0xbe05a854be0fd7feU,
  0xbd5258bcbd13ffc4U, 0xbda62a4b3d6cd478U, 0x3d6ad2b4bd278918U, 0x3dc70e48bcc4a23cU,
  0x3da465eabd8b0f15U, 0xbd84f4373df20c68U, 0x3d87f840be068695U, 0x3d8d6f5abcd1c7c0U,
  0x3d02401cbde1740eU, 0xbdd9054cbd0315f6U, 0xbc6844203c9c8910U, 0x3cf1c0703d2108a0U,
  0xbd86a19e3d49a0c0U, 0x3ccdc8383da5a000U, 0xbda2c2ebbe05284dU, 0xbdc88deebddc4f3aU,
  0xbb92ed38bdadf91cU, 0x3d845da83dbb841fU, 0xbdb233ff3dadd5b4U, 0xbe14bc6fbd159afcU,
  0x3de39b6a3d9eb95fU, 0xbd9cbeb83d9d6d8aU, 0x3e115eb93cadca18U, 0x3dcde5a9bdcc14c4U,
  0x3da3fb083d7c55ffU, 0xbe03cc57bdea9215U, 0xbc953c073d7e83efU, 0xbd8ab6b13d4afc44U,
  0xbd8aef4c3d3dd550U, 0xbe16a640bd5709afU, 0xbbade906be1a20cbU, 0x3dece81cbd0317e8U,
  0x3d1b7b993dda80c8U, 0x3d4e11e9bd99cd7aU, 0x3d84090c3e09d1f9U, 0xbe0492543ce75764U,
  0x3d6fa538bdeed184U, 0x3c0f43a93e1687c1U, 0xbdfa47453c6aff0bU, 0xbc609a3dbdc7fd28U,
  0x3dfd393ebd1b1fbeU, 0x3da9f1993d9ec9a3U, 0x3dbac88ebe0dcde2U, 0x3dd764f03b0bb14cU,
  0xbe0a7efbbc8e396aU, 0xbd90fb323d872726U, 0xbd648502be092e1bU, 0xbdb036e13e17acb9U,
  0xbd83abefbda28a74U, 0x3bdab90dbdada57cU, 0xbdc5b675bdf6f2eaU, 0x3bc19367bdba1141U,
  0xbdf6ebce3dd360c7U, 0x3cf72ac33d233dabU, 0x3cb441bfbdc2ac58U, 0x3cfc5c433d962278U,
  0x3e12f1033d572bb1U, 0x3c2f1496bb975255U, 0x3e0c557d3d5031a0U, 0xbdd6e0323e07fe7aU,
  0x3d0325f63d429e15U, 0xbdf850a63cc4e4caU, 0x3e05e43f3dd93527U, 0xbd121b64bdd3384dU,
  0xbe02ff843e110d9cU, 0xbc11dab0bdd0985aU, 0x3e07a1dabe011893U, 0xbdbcb37c3d788d90U,
  0x3d3254303e047b14U, 0xbd5f6d923dd3febeU, 0x3c6b0a20bdf17321U, 0xbd783664bd946301U,
  0x3bf786c03dd368feU, 0x3d8d95dc3bb29140U, 0x3dcc208a3d8063b4U, 0xbd5a5690bdf10e00U,
  0x3d8b225e3de15ad0U, 0x3dd27504bdade226U, 0x3d0768b8bdc62394U, 0xbe12cf3b3d1bf748U,
  0x3bfd64e03e132060U, 0xbe06ebd23d550e50U, 0xbe0b1144bd959406U, 0xbcf50bb4bd7397daU,
  0x3dad7e803d9401b2U, 0x3de269dcbdf49b92U, 0xbd496a8ebddfb127U, 0xbd9354ad3e11f0c0U,
  0xbdaf1e27bdf97edcU, 0x3dbd2394be09334aU, 0x3d83d6723d2aa57bU, 0x3dffe447bdbc83fdU,
  0x3d99a1af3d66a15dU, 0xbd8c5ee3bd202548U, 0x3dc5fe443c775278U, 0x3a78b94f3d891de1U,
  0xbde7f0cb3d9d60e6U, 0x3de41de8bd730cd2U, 0x3dd7d5ac3e0d25f7U, 0x3de80cae3db37672U,
  0xbdd804dabd1cefb8U, 0x3b03ffc0bdb69d93U, 0x3dd566bf3ccea63eU, 0xbd990ad83d329164U,
  0xbdfee8013e0b2de2U, 0x3d623843bc479800U, 0xbdb7c69cbdd10d1aU, 0x3d7266163e07bec9U,
  0x3d329dd3bdaca2f1U, 0xbcce412c3bac16c4U, 0x3b2d6a4cbc0d7a40U, 0xbd76a12c3d7d33eeU,
  0x3bcc470f3d3cd6d5U, 0xbd3c1804bd49070eU, 0xbe0dc0e6bd8b9934U, 0xbcc85f143de36401U,
  0xbd740d7dbdac07e8U, 0xbce9ade3bde6e049U, 0x3e05e822be01f64eU, 0xbdc0fbdf3e020b9aU,
  0xbd191a083db0baf0U, 0xbdbb11ce3ce401c8U, 0xbdddfb403c8c323dU, 0xbdb47c11b9577254U,
  0x3d5386f6bd391cf3U, 0x3ce799cf3b82a5c1U, 0x3c4f32183c82731fU, 0xbde3f9d73c5dc324U,
  0xbd6f9f6a3d6092e8U, 0x3d9fd7cb3dd9be64U, 0x3c9ce32f3da41290U, 0xbc8d5547bc370cb0U,
  0xbdb3d93a3d459950U, 0x3d93639abda64deaU, 0xbde40a16bb1987c1U, 0xbdf575133d896519U,
  0xbd58af48bde7d70eU, 0xbd9104763d00bf5cU, 0x3d95de4f3caaab07U, 0x3d0baf733db942a5U,
  0x3ae4e9553d611300U, 0x3de520033d63b67eU, 0x3dfad308bd3759dcU, 0x3d93852f3d2aa55fU,
  0xbdb864ee3da23a52U, 0x3d4d4d1bbddbb57eU, 0xbdd6671ebdf42ac6U, 0x3dd08508bd75e622U,
  0x3d233f60bdb10db5U, 0x3d1f490b3de807e4U, 0x3d8cd082bde0155cU, 0x3ca6f9c0bced5c44U,
  0xbd944f65bce0ba18U, 0xbc4217003cfa0217U, 0x3dfe560c3d67f6ceU, 0xbdcc6d7b3dad404eU,
  0xbd616eab3df3630eU, 0xbdde90c2bdb50c47U, 0x3c9850f7bd689f1dU, 0xbc99898a3de6c18aU,
  0xbddf22a8bdd0bd64U, 0x3e1f1921bd5ebe2dU, 0xbd38260c3da9871dU, 0xbde8788bbdc18140U,
  0xbde261fa3daf2ae5U, 0xbd254094bd46908dU, 0xbcb1ff31bd582419U, 0x3db9fb54bce1d5a8U,
  0x3d3e54903d72e044U, 0xbdfe8fa1bd519db8U, 0x3baea7433d6ef402U, 0x3d5c79e5bd69300aU,
  0xbc9fe686be109a30U, 0xbd9a80c3bd9de9afU, 0xbc1cd9fcbdad534aU, 0xbde0051c3dd86041U,
  0x3d62e332bcdbc7a2U, 0x3e06e3573d534a30U, 0x3d363538bcb7ea22U, 0x3da8ecec3db2ce20U,
  0x3d2a130fbcb4a9ffU, 0x3dd992fc3d6fb8e2U, 0x3d5d7367bda7654cU, 0xbda372ba3de267e7U,
  0xbd16862abad48c80U, 0x3dc50100bca8945eU, 0xbdd7a8d4bdce7cf4U, 0xbd9765963ce0ca65U,
  0xbdd523e73acccf11U, 0xbe104f773d8835d3U, 0x3db8c93cbd848ab7U, 0x3db7d8a2bd94c8f2U,
  0x3d8b78d83ddb18eeU, 0xbd6f1cbc3dea5113U, 0xbe392e063da0cb1fU, 0x3d5f2bb23dd439a6U,
  0x3d91ae30bd8c6eeeU, 0x3dc64934be02edd9U, 0x3bd107d23d88bf79U, 0x3dc58b0d3dab58fbU,
  0x3bc417a0bd13624cU, 0x3b262cb53d38e258U, 0xbca8831b3c73c0cfU, 0xbb96b778bc29b850U,
  0xbc57a876bda5e8c5U, 0xbd0649f5bdf233c6U, 0xbd48a5c3bd40d620U, 0x3dcf235dbdac0871U,
  0x3dcc95d63d5751eaU, 0x3cf023c03dcab6f2U, 0x3d86c296bdcf43bfU, 0x3de60506bd8f068aU,
  0x3dabc6c43e12dd2fU, 0xbd4995bd3dea86b3U, 0xbcd23118bd1a5670U, 0x3d36726c3d1ffc5eU,
  0xbe083d98bd36e020U, 0xbc7974403e26482eU, 0x3dc96ed43ded011aU, 0x3cd3205dbdadb991U,
  0x3c429626bdc3ea30U, 0xbd4cbf7b3da162acU, 0x3d394c2abd0342caU, 0xbdd93a673cfb4eb5U,
  0xbd357e2bbbfe3f40U, 0xbd8bbf05bdd97654U, 0x3cd50de0be04fa0bU, 0xbcd4b848bce15fa8U,
  0x3dabaeb4bbd7cc53U, 0x3decfaa8bde8bcffU, 0xbcf35a273cccd588U, 0xbcf090883d6a2bd0U,
  0xbd199084bdb5ecbcU, 0x3d735a36bd7cb430U, 0xbd88236fbdc09281U, 0x3d8a64f5bd05aa72U,
  0x3cd3908abcaa4199U, 0xbdd9c4db3ca15d6eU, 0xbce97d053ddb7c60U, 0x3d1e3eb8bc651e42U,
  0xbc632fffbd4d02c3U, 0xbe0f03343dc3582eU, 0x3ce7c8883dea48baU, 0x3b1f76c03d5754eaU,
  0xbbb04c7cbe0741b3U, 0xbd20f312bdbd6a81U, 0x3daa17fd3c5a83d0U, 0xbd01066cbc28e22dU,
  0x3d01cbfc3cdacc00U, 0xbd559178bc52993eU, 0x3d02ab3cbdbc3b91U, 0xbd22ee49bd7ba62cU,
  0x3dc99f4dbd8514e5U, 0xbdccc87ebd7c2efbU, 0xbc758c59bd6ec556U, 0x3dbb888ebbf7e90fU,
  0x3d6292d3bd94f0eaU, 0xbe0be297bd6fb76fU, 0x3dbdfc3abdd505e0U, 0xbcdc054e3da8ae8eU,
  0x3d598a48bd802b08U, 0xbd32cf54bda9e988U, 0xbd63b5493da5514aU, 0x3de554fc3d1e92aaU,
  0xbbe039e0bba61a20U, 0xbdc47f69bcdbc140U, 0xbd6ce89fbdbc565eU, 0xbdb16ca43d0170dbU,
  0x3aceec88bb4eb45aU, 0x3e017cd03d7a092eU, 0x3ddee972bd217ee0U, 0xbd1f5b8fbde6f0baU,
  0xbe0a8dbabcf41ea2U, 0xbca0734e3d37cc00U, 0x3c7279e0bcb00649U, 0x3bd27d003df566ebU,
  0xbdc87cb23de73d10U, 0xbbb04f8f3b617301U, 0xbdbb7632bd196854U, 0xbd006fb83dcbb2c3U,
  0xbe158a32bd974bd2U, 0xbddb3ee43d87399dU, 0xbd71a02abddae09aU, 0x3dce48ed3d35a8e4U,
  0xbdc748113bb41256U, 0x3d9b6d2bbd633498U, 0x3c9542453d90fc0fU, 0xbb30e2233d677cceU,
  0x3db36e39bcbdba38U, 0x3d845b8abd9d3602U, 0x3d9d1f9b3db1adf0U, 0xbda8314d3df3f662U,
  0xbde3668a3cf888ecU, 0xbc78d900bdaf982fU, 0xbda65bedbc8488f0U, 0x3d0edb443c54c535U,
  0xbdde31f2bd123a7cU, 0x3cb197503db4c992U, 0x3e06d8e13cff378bU, 0x3dcc42e8bcc04c96U,
  0x3dbcf2cdbdf31ea5U, 0x3e09193abd98cf07U, 0xbd0b06383b6c3880U, 0x3be7503d3dd0e376U,
  0x3d9fdf9c3df14ef5U, 0x3dcd4521bc967248U, 0x3dd537eabd17f1dbU, 0x3dc6cb8e3d3edcebU,
  0xbd9a60d73d568b67U, 0xbdbe7d9cbd659272U, 0xbdee4656bdfc51a8U, 0xbdd5d92cbcb10d65U,
  0x3d88730c3d2c12a7U, 0xbd8cd9d9bdbe6012U, 0x3c5297f63d020c5fU,
};


ai_handle g_network_weights_table[1 + 2] = {
  AI_HANDLE_PTR(AI_MAGIC_MARKER),
  AI_HANDLE_PTR(s_network_weights_array_u64),
  AI_HANDLE_PTR(AI_MAGIC_MARKER),
};

